<pad>	0
<s>	0
</s>	0
<unk>	0
▁	-2.78358
s	-3.12175
.	-3.17969
and	-3.61264
e	-3.77955
▁to	-4.08539
,	-4.11121
al	-4.1685
▁of	-4.45634
▁the	-4.53376
ing	-4.6344
th	-4.76489
▁a	-4.80417
d	-4.96596
es	-5.0169
t	-5.05895
n	-5.0759
ow	-5.1196
i	-5.12272
▁us	-5.16847
y	-5.19726
▁in	-5.22661
our	-5.24806
st	-5.36715
▁h	-5.39375
w	-5.42484
▁re	-5.43885
r	-5.45939
ation	-5.46315
▁wi	-5.48022
▁Th	-5.48464
u	-5.54004
an	-5.54144
▁for	-5.57245
▁relationships	-5.57685
▁f	-5.60261
▁m	-5.61157
a	-5.6172
o	-5.67419
▁l	-5.68168
om	-5.71894
▁world	-5.71971
▁provide	-5.71976
ning	-5.74698
at	-5.75743
ve	-5.79027
um	-5.81476
ge	-5.82067
ers	-5.84761
▁A	-5.88151
ed	-5.9011
▁k	-5.90295
ly	-5.90762
▁b	-5.91098
ro	-5.91169
led	-5.91523
▁ne	-5.91684
▁ha	-5.93419
ion	-5.93437
l	-5.9461
man	-6.00415
▁T	-6.00839
or	-6.02071
▁c	-6.03169
g	-6.047
▁creat	-6.05203
▁E	-6.06579
'	-6.08637
▁problems	-6.08637
▁understanding	-6.08992
▁an	-6.09561
▁through	-6.09564
ll	-6.10552
nd	-6.13248
is	-6.16827
▁creativ	-6.17337
▁p	-6.17887
ear	-6.18986
cal	-6.20407
▁th	-6.20409
▁e	-6.20821
ffer	-6.21522
er	-6.23528
ce	-6.25259
di	-6.26645
it	-6.32428
I	-6.33591
▁H	-6.33637
▁complex	-6.33637
▁continue	-6.33637
▁skills	-6.33637
▁help	-6.33637
▁life	-6.33639
▁society	-6.33737
▁others	-6.34376
▁va	-6.34427
▁M	-6.3446
▁all	-6.35389
re	-6.35703
▁mo	-6.36594
▁systems	-6.37349
ound	-6.37801
▁C	-6.38186
each	-6.38747
out	-6.39185
ful	-6.39408
ol	-6.39469
ake	-6.42772
us	-6.43433
ne	-6.44335
red	-6.44565
▁scienti	-6.47863
▁di	-6.48243
rom	-6.48579
ig	-6.48951
▁t	-6.49857
▁g	-6.49911
ity	-6.50806
on	-6.51385
▁communi	-6.51969
▁ar	-6.52398
ap	-6.53455
ment	-6.54426
how	-6.58174
▁o	-6.58378
ent	-6.5996
▁s	-6.60554
ance	-6.61096
p	-6.62072
v	-6.62081
est	-6.64125
▁natur	-6.64461
ri	-6.64589
▁w	-6.65275
▁co	-6.65789
▁Fr	-6.6598
ons	-6.66459
▁develop	-6.66832
ence	-6.6697
▁contribute	-6.66971
▁individuals	-6.66971
▁perspectives	-6.66971
▁transport	-6.66971
▁language	-6.66971
▁think	-6.66971
▁transform	-6.66971
-	-6.66971
▁protect	-6.66971
▁process	-6.66973
▁ideas	-6.6698
▁enable	-6.67
▁support	-6.67101
▁sens	-6.67132
ties	-6.6724
▁education	-6.6724
ts	-6.67346
diversity	-6.68162
▁inter	-6.68289
▁connect	-6.68666
atter	-6.6915
▁d	-6.69286
ar	-6.6975
technology	-6.70146
ns	-6.70556
rio	-6.71026
volve	-6.71219
ual	-6.7374
ant	-6.74246
ies	-6.74353
▁en	-6.75532
eep	-6.7707
forms	-6.77851
ist	-6.77942
▁ad	-6.78588
▁ex	-6.79292
▁pla	-6.79886
ic	-6.8147
iz	-6.84042
▁cr	-6.84082
▁be	-6.88488
▁br	-6.89258
tific	-6.89675
fic	-6.90326
▁scien	-6.90703
les	-6.91179
▁ra	-6.94303
cation	-6.96064
ever	-6.98921
olve	-7.00458
▁con	-7.01023
in	-7.01026
h	-7.01272
ke	-7.0342
c	-7.0364
m	-7.041
ext	-7.04344
▁bo	-7.04617
qu	-7.06982
ions	-7.07166
▁la	-7.07403
▁Co	-7.0843
ntain	-7.08494
no	-7.08932
ith	-7.10357
systems	-7.10521
ci	-7.10825
ive	-7.12076
echnology	-7.12139
od	-7.12225
ess	-7.13187
co	-7.13902
▁fr	-7.13917
▁ca	-7.14365
pre	-7.14477
▁S	-7.14886
▁divers	-7.15285
▁inte	-7.15384
▁R	-7.15686
▁Con	-7.15776
▁understand	-7.15958
ble	-7.16263
▁discover	-7.16319
hip	-7.16376
ducation	-7.16535
▁li	-7.16626
N	-7.16971
▁Communi	-7.16971
▁O	-7.16971
▁P	-7.16971
▁challenges	-7.16971
▁combin	-7.16971
▁effort	-7.16971
▁environment	-7.16971
▁experimentation	-7.16971
▁habitat	-7.16971
▁meaningful	-7.16971
▁networks	-7.16971
▁technologi	-7.16971
▁Creativ	-7.16971
▁mechanic	-7.16971
▁B	-7.16971
▁L	-7.16971
▁W	-7.16971
▁computers	-7.16971
▁species	-7.16971
▁emotion	-7.16971
limate	-7.16971
▁planet	-7.16972
▁comp	-7.16973
mpathy	-7.16974
▁harm	-7.16975
▁explor	-7.1699
▁appli	-7.16992
▁univers	-7.17001
▁chang	-7.17006
▁shape	-7.17007
ctive	-7.17007
▁advancement	-7.17021
elong	-7.17035
▁Engineer	-7.17043
▁express	-7.17045
face	-7.17046
▁solutions	-7.17047
▁In	-7.17076
servation	-7.17094
▁build	-7.17104
ook	-7.1712
▁part	-7.17127
▁medi	-7.17144
genui	-7.17176
ys	-7.17179
▁development	-7.17197
struct	-7.17197
▁innovation	-7.17203
▁creators	-7.17213
▁For	-7.17233
▁interacti	-7.17281
atur	-7.17291
entors	-7.17318
▁rema	-7.1733
▁sha	-7.17338
culture	-7.17464
put	-7.17595
▁discovery	-7.17682
▁pers	-7.17877
▁brea	-7.17965
udie	-7.18126
▁disa	-7.18235
▁F	-7.18344
igate	-7.18683
▁Arti	-7.18719
▁imp	-7.18732
▁eco	-7.18821
▁fields	-7.18854
▁experiences	-7.18857
der	-7.18909
▁Ro	-7.19031
▁Scien	-7.19098
▁prese	-7.20196
▁care	-7.20233
tics	-7.20519
▁pur	-7.20661
▁generat	-7.20714
cover	-7.20914
▁ma	-7.20919
pose	-7.20925
ics	-7.21228
▁nature	-7.21322
▁vis	-7.21546
ty	-7.22305
▁wh	-7.22503
▁pro	-7.22604
id	-7.23242
ob	-7.23453
▁Tr	-7.24996
▁ab	-7.25327
sign	-7.25435
▁D	-7.2553
▁vi	-7.25617
▁na	-7.26591
ut	-7.26714
achine	-7.26981
mal	-7.27255
nts	-7.27685
tions	-7.27792
▁da	-7.28229
hist	-7.28371
gu	-7.28378
ou	-7.2913
▁inspire	-7.29747
▁qu	-7.31208
ors	-7.31381
▁rea	-7.31493
▁spa	-7.32652
ability	-7.33416
le	-7.33569
mind	-7.33692
tain	-7.35112
eling	-7.35601
to	-7.365
fi	-7.3737
ach	-7.38631
ances	-7.38882
▁pr	-7.39194
ens	-7.39722
▁de	-7.41272
sions	-7.41273
organisms	-7.41751
ire	-7.43738
tre	-7.44499
▁sou	-7.44559
▁liv	-7.46101
ch	-7.46582
▁communicat	-7.47462
ress	-7.47705
▁inform	-7.50144
x	-7.51762
era	-7.53979
urs	-7.54036
stron	-7.54565
racti	-7.60223
ms	-7.6794
ab	-7.68784
sh	-7.69567
formation	-7.70306
▁le	-7.71407
hy	-7.71443
▁organism	-7.71546
io	-7.72717
ain	-7.73823
k	-7.76124
▁form	-7.7618
▁i	-7.7793
oration	-7.79347
ove	-7.81663
unda	-7.8198
ter	-7.82015
bility	-7.83723
b	-7.84215
f	-7.84905
lat	-7.85035
me	-7.85095
her	-7.8645
▁me	-7.86613
ners	-7.87244
ries	-7.88084
▁inspir	-7.89899
▁fu	-7.90521
gre	-7.91047
ner	-7.94367
ul	-7.94922
ac	-7.95172
iv	-7.9632
tic	-7.96424
esearch	-7.96478
▁v	-7.97414
▁at	-7.98676
ry	-7.99565
ti	-8.0052
power	-8.02396
▁so	-8.02679
im	-8.03343
olution	-8.03992
▁Des	-8.04114
nds	-8.04724
▁resp	-8.04798
▁r	-8.07024
ass	-8.07039
▁exp	-8.08034
ta	-8.08108
▁gene	-8.08371
ums	-8.09584
▁De	-8.09876
que	-8.10026
connect	-8.1021
care	-8.10222
through	-8.10731
ect	-8.11239
ten	-8.11456
ction	-8.11617
cient	-8.11942
lf	-8.12278
▁experience	-8.12301
▁field	-8.12309
▁Ma	-8.12321
▁other	-8.12817
▁system	-8.1293
hav	-8.13699
onom	-8.14331
▁ag	-8.14745
▁Re	-8.15078
ces	-8.15127
vel	-8.15528
ultur	-8.15734
icia	-8.15766
novation	-8.16382
▁societ	-8.16416
he	-8.1642
pport	-8.16456
bo	-8.16525
hrough	-8.16529
ology	-8.1657
▁techn	-8.16572
onstr	-8.16613
uild	-8.16645
ngineer	-8.16786
▁fun	-8.16821
▁advance	-8.1685
osit	-8.16866
▁un	-8.16915
nderstanding	-8.16934
upport	-8.16946
U	-8.16971
unities	-8.16973
▁app	-8.17006
ture	-8.17015
cessi	-8.17068
ntif	-8.17087
▁soci	-8.17087
pla	-8.1716
ionship	-8.17212
ages	-8.17339
▁im	-8.17347
nize	-8.17678
ematic	-8.17712
rk	-8.18086
work	-8.18087
▁uni	-8.18106
ple	-8.18167
ships	-8.18273
ivers	-8.18613
ific	-8.18614
icate	-8.18619
▁spe	-8.18789
ession	-8.18843
able	-8.19118
ays	-8.19405
▁op	-8.19594
atic	-8.19616
hem	-8.19633
mos	-8.20422
vide	-8.20755
ict	-8.20904
nfl	-8.21192
▁inf	-8.21372
redi	-8.21954
over	-8.22025
rc	-8.22165
if	-8.22307
ft	-8.22373
ities	-8.2261
▁ide	-8.22767
uti	-8.22916
gen	-8.23946
ech	-8.24062
▁pu	-8.244
▁inv	-8.2506
enti	-8.25367
▁su	-8.26581
mac	-8.26621
ate	-8.27014
po	-8.27031
ver	-8.27143
ime	-8.27239
nces	-8.27427
ange	-8.27459
▁wo	-8.27593
lu	-8.27735
nder	-8.28228
▁cl	-8.29117
mou	-8.29346
serv	-8.29636
mis	-8.299
▁cou	-8.301
spect	-8.30799
ay	-8.31116
solution	-8.31422
res	-8.31544
ctions	-8.31867
▁cu	-8.32544
▁En	-8.3337
▁emp	-8.33929
nom	-8.35345
up	-8.35434
vers	-8.35436
▁fi	-8.35895
ak	-8.36842
ide	-8.39452
very	-8.39622
ric	-8.40268
▁dis	-8.40561
search	-8.42078
ders	-8.43249
▁bu	-8.45018
▁pe	-8.45584
▁ci	-8.45587
sity	-8.47607
▁ac	-8.48968
▁al	-8.51146
▁pa	-8.51997
▁sol	-8.53449
ere	-8.54184
ra	-8.5696
av	-8.5721
ivi	-8.57695
ounda	-8.60197
iti	-8.60351
ations	-8.62178
ters	-8.66162
am	-8.702
rce	-8.71925
rt	-8.72338
owe	-8.72526
lity	-8.75437
hes	-8.75468
abo	-8.7586
ntl	-8.78638
▁n	-8.79079
ration	-8.80157
stor	-8.81805
can	-8.81906
ding	-8.86231
ls	-8.93173
▁st	-8.93418
ments	-8.9436
sin	-8.95415
ste	-8.99606
ans	-9.01679
wa	-9.02455
▁sc	-9.0419
il	-9.06948
ea	-9.12583
ho	-9.13922
▁er	-9.16432
ur	-9.19393
ue	-9.21409
▁ou	-9.28673
ine	-9.29599
acti	-9.31879
W	-9.52677
P	-9.52687
O	-9.52697
L	-9.52707
B	-9.52717
z	-9.52727
S	-9.52737
H	-9.52747
D	-9.52757
q	-9.52767
R	-9.52777
M	-9.52787
F	-9.52797
E	-9.52807
A	-9.52817
C	-9.52827
T	-9.52837
